{
  "version": "1.0",
  "truncation": null,
  "padding": null,
  "added_tokens": [
    {
      "id": 0,
      "content": "<unk>",
      "single_word": false,
      "lstrip": false,
      "rstrip": false,
      "normalized": false,
      "special": true
    }
  ],
  "normalizer": null,
  "pre_tokenizer": {
    "type": "ByteLevel",
    "add_prefix_space": false,
    "trim_offsets": true,
    "use_regex": true
  },
  "post_processor": null,
  "decoder": {
    "type": "ByteLevel",
    "add_prefix_space": true,
    "trim_offsets": true,
    "use_regex": true
  },
  "model": {
    "type": "BPE",
    "dropout": null,
    "unk_token": "<unk>",
    "continuing_subword_prefix": null,
    "end_of_word_suffix": null,
    "fuse_unk": false,
    "byte_fallback": false,
    "ignore_merges": false,
    "vocab": {
      "<unk>": 0,
      "!": 1,
      "\"": 2,
      "#": 3,
      "$": 4,
      "%": 5,
      "&": 6,
      "'": 7,
      "(": 8,
      ")": 9,
      "*": 10,
      "+": 11,
      ",": 12,
      "-": 13,
      ".": 14,
      "/": 15,
      "0": 16,
      "1": 17,
      "2": 18,
      "3": 19,
      "4": 20,
      "5": 21,
      "6": 22,
      "7": 23,
      "8": 24,
      "9": 25,
      ":": 26,
      ";": 27,
      "<": 28,
      "=": 29,
      ">": 30,
      "?": 31,
      "@": 32,
      "A": 33,
      "B": 34,
      "C": 35,
      "D": 36,
      "E": 37,
      "F": 38,
      "G": 39,
      "H": 40,
      "I": 41,
      "J": 42,
      "K": 43,
      "L": 44,
      "M": 45,
      "N": 46,
      "O": 47,
      "P": 48,
      "Q": 49,
      "R": 50,
      "S": 51,
      "T": 52,
      "U": 53,
      "V": 54,
      "W": 55,
      "X": 56,
      "Y": 57,
      "Z": 58,
      "[": 59,
      "\\": 60,
      "]": 61,
      "_": 62,
      "`": 63,
      "a": 64,
      "b": 65,
      "c": 66,
      "d": 67,
      "e": 68,
      "f": 69,
      "g": 70,
      "h": 71,
      "i": 72,
      "j": 73,
      "k": 74,
      "l": 75,
      "m": 76,
      "n": 77,
      "o": 78,
      "p": 79,
      "q": 80,
      "r": 81,
      "s": 82,
      "t": 83,
      "u": 84,
      "v": 85,
      "w": 86,
      "x": 87,
      "y": 88,
      "z": 89,
      "{": 90,
      "|": 91,
      "}": 92,
      "~": 93,
      "¡": 94,
      "¢": 95,
      "£": 96,
      "¤": 97,
      "¥": 98,
      "¦": 99,
      "§": 100,
      "¨": 101,
      "©": 102,
      "ª": 103,
      "«": 104,
      "¬": 105,
      "®": 106,
      "¯": 107,
      "°": 108,
      "±": 109,
      "³": 110,
      "´": 111,
      "µ": 112,
      "¶": 113,
      "·": 114,
      "¸": 115,
      "¹": 116,
      "º": 117,
      "»": 118,
      "¼": 119,
      "½": 120,
      "¾": 121,
      "¿": 122,
      "Â": 123,
      "Ã": 124,
      "Ä": 125,
      "Å": 126,
      "É": 127,
      "Ê": 128,
      "Ñ": 129,
      "Ò": 130,
      "á": 131,
      "â": 132,
      "ã": 133,
      "ä": 134,
      "å": 135,
      "æ": 136,
      "ç": 137,
      "è": 138,
      "é": 139,
      "î": 140,
      "ï": 141,
      "ð": 142,
      "ĉ": 143,
      "Ċ": 144,
      "Ġ": 145,
      "Ģ": 146,
      "ģ": 147,
      "Ĥ": 148,
      "ĥ": 149,
      "Ħ": 150,
      "ħ": 151,
      "Ĩ": 152,
      "ĩ": 153,
      "Ī": 154,
      "ī": 155,
      "Ĭ": 156,
      "ĭ": 157,
      "Į": 158,
      "į": 159,
      "İ": 160,
      "ı": 161,
      "Ĳ": 162,
      "ĳ": 163,
      "Ĵ": 164,
      "ĵ": 165,
      "Ķ": 166,
      "ķ": 167,
      "ĸ": 168,
      "ĺ": 169,
      "Ļ": 170,
      "ļ": 171,
      "Ľ": 172,
      "ľ": 173,
      "Ŀ": 174,
      "ŀ": 175,
      "Ł": 176,
      "ł": 177,
      "Ń": 178,
      "Ġt": 179,
      "he": 180,
      "Ġa": 181,
      "Ġs": 182,
      "nd": 183,
      "Ġw": 184,
      "Ġthe": 185,
      "ed": 186,
      "Ġb": 187,
      "Ġto": 188,
      "Ġand": 189,
      "Ġh": 190,
      "Ġf": 191,
      "in": 192,
      "ĠT": 193,
      "Ġwa": 194,
      "re": 195,
      "it": 196,
      "ou": 197,
      "Ġl": 198,
      "Ġd": 199,
      "Ġc": 200,
      "Ġp": 201,
      "ay": 202,
      "Ġm": 203,
      "er": 204,
      "Ġwas": 205,
      "om": 206,
      "ĠThe": 207,
      "Ġhe": 208,
      "is": 209,
      "ar": 210,
      "Ġn": 211,
      "im": 212,
      "on": 213,
      "Ġsa": 214,
      "id": 215,
      "ll": 216,
      "Ġha": 217,
      "Ġg": 218,
      "at": 219,
      "ĠS": 220,
      "ing": 221,
      "ot": 222,
      "en": 223,
      "an": 224,
      "le": 225,
      "or": 226,
      "end": 227,
      "ir": 228,
      "of": 229,
      "am": 230,
      "et": 231,
      "ĠH": 232,
      "Ġit": 233,
      "Ġth": 234,
      "ig": 235,
      "ĠThey": 236,
      "Ġin": 237,
      "il": 238,
      "Ġpl": 239,
      "ĠHe": 240,
      "Ġ\"": 241,
      "ow": 242,
      "ver": 243,
      "ri": 244,
      "ut": 245,
      "Ġbe": 246,
      "Ġu": 247,
      "Ġsaid": 248,
      "Ġplay": 249,
      "ith": 250,
      "Ġday": 251,
      "Ġwith": 252,
      "pp": 253,
      "On": 254,
      "Ġy": 255,
      "oo": 256,
      "ked": 257,
      "Ġr": 258,
      "Ġher": 259,
      "ex": 260,
      "ce": 261,
      "ĠI": 262,
      "ĠShe": 263,
      "ld": 264,
      "ĠTim": 265,
      "Ġhis": 266,
      "Ġst": 267,
      "ke": 268,
      "Ġbig": 269,
      "nt": 270,
      "ck": 271,
      "Ġyou": 272,
      "very": 273,
      "st": 274,
      "ve": 275,
      "Ġon": 276,
      "un": 277,
      "Ġhapp": 278,
      "riend": 279,
      "Ġfriend": 280,
      "all": 281,
      "ily": 282,
      "ext": 283,
      "ĠL": 284,
      "Ġthey": 285,
      "oft": 286,
      "Ġwe": 287,
      "Ġhad": 288,
      "Ġnot": 289,
      "Ġli": 290,
      "Ġup": 291,
      "her": 292,
      "Ġwant": 293,
      "Ġof": 294,
      "ad": 295,
      "itt": 296,
      "<|": 297,
      "|>": 298,
      "endoft": 299,
      "endoftext": 300,
      "se": 301,
      "ĠB": 302,
      "Ġdo": 303,
      "Ġe": 304,
      "Ġhappy": 305,
      "ent": 306,
      "Ġvery": 307,
      "ĠM": 308,
      "es": 309,
      "Ġthat": 310,
      "Ġsaw": 311,
      "One": 312,
      "'s": 313,
      "ould": 314,
      "Ġmom": 315,
      "Ġfor": 316,
      "Ġsh": 317,
      "ittle": 318,
      "Ġlittle": 319,
      "Ġshe": 320,
      "ch": 321,
      "ime": 322,
      "Ġnam": 323,
      ".\"": 324,
      "Ġtime": 325,
      "Ġk": 326,
      "ound": 327,
      "Ġso": 328,
      "Ġthere": 329,
      "Ġnamed": 330,
      "Ġsm": 331,
      "Ġbo": 332,
      "Ġwere": 333,
      "ĠLily": 334,
      "Ġne": 335,
      "Ġwanted": 336,
      "Ġbut": 337,
      "out": 338,
      "The": 339,
      "Ġfriends": 340,
      "ved": 341,
      "!\"": 342,
      "ht": 343,
      "ĠTom": 344,
      "ird": 345,
      "el": 346,
      "Ġbird": 347,
      "al": 348,
      "Ġan": 349,
      "ake": 350,
      "Ġtoo": 351,
      "ome": 352,
      "ĠIt": 353,
      "ug": 354,
      "ide": 355,
      "Ġwent": 356,
      "Ġwh": 357,
      "Ġhel": 358,
      "Once": 359,
      "Ġis": 360,
      "Ġall": 361,
      "Ġhelp": 362,
      "ue": 363,
      "Ġloo": 364,
      "Ġlo": 365,
      "ter": 366,
      "ĠA": 367,
      "Ġupon": 368,
      "ry": 369,
      "ore": 370,
      "ind": 371,
      "Ġfun": 372,
      "get": 373,
      "Ġtoy": 374,
      "ill": 375,
      "ame": 376,
      "Ġas": 377,
      "Ġat": 378,
      "ra": 379,
      "Ġj": 380,
      "Ġdid": 381,
      "gether": 382,
      "Ġre": 383,
      "ur": 384,
      "Ġo": 385,
      "Ġse": 386,
      "Ġtogether": 387,
      "ack": 388,
      "Ġcat": 389,
      "ly": 390,
      "Ġtre": 391,
      "ood": 392,
      "ic": 393,
      "ted": 394,
      "Ġdog": 395,
      "Ġcould": 396,
      "Ġcan": 397,
      "Ġtheir": 398,
      "ard": 399,
      "ec": 400,
      "ark": 401,
      "Ġgir": 402,
      "Ġplayed": 403,
      "Ġhim": 404,
      "Ġball": 405,
      "?\"": 406,
      "Ġgirl": 407,
      "Ġro": 408,
      "way": 409,
      "Ġgo": 410,
      "hed": 411,
      "my": 412,
      "Ġare": 413,
      "Ġout": 414,
      "Ġle": 415,
      "Ġfr": 416,
      "ain": 417,
      "Ġkn": 418,
      "hen": 419,
      "Ġthem": 420,
      "um": 421,
      "'t": 422,
      "ax": 423,
      "Ġsad": 424,
      "ul": 425,
      "Ġboy": 426,
      "Ġtree": 427,
      "other": 428,
      "Ġhave": 429,
      "Ġman": 430,
      "Ġcl": 431,
      "Ġloved": 432,
      "Ġlooked": 433,
      "oug": 434,
      "Ġfound": 435,
      "Ġsp": 436,
      "Ġstar": 437,
      "ĠSue": 438,
      "one": 439,
      "hing": 440,
      "Ġsc": 441,
      "Ġback": 442,
      "own": 443,
      "ĠMax": 444,
      "are": 445,
      "Ġlike": 446,
      "ful": 447,
      "side": 448,
      "Ġme": 449,
      "Ġbec": 450,
      "Ġpark": 451,
      "ight": 452,
      "ong": 453,
      "Ġcar": 454,
      "op": 455,
      "elt": 456,
      "ĠOne": 457,
      "Ġliked": 458,
      "Ġwould": 459,
      "Ġmake": 460,
      "round": 461,
      "Ġla": 462,
      "Ġfa": 463,
      "Ġfelt": 464,
      "You": 465,
      "ĠW": 466,
      "ell": 467,
      "Ġsee": 468,
      "ĠBut": 469,
      "omet": 470,
      "Ġasked": 471,
      "ag": 472,
      "Ġnew": 473,
      "Ġno": 474,
      "ice": 475,
      "ĠSam": 476,
      "ouse": 477,
      "Ġstarted": 478,
      "ared": 479,
      "Ġcame": 480,
      "ĠBen": 481,
      "Ġal": 482,
      "Ġother": 483,
      "ought": 484,
      "iled": 485,
      "Ġsomet": 486,
      "Ġag": 487,
      "Ġgood": 488,
      "Ġsmall": 489,
      "ss": 490,
      "Ġbr": 491,
      "Ġsmiled": 492,
      "Ġsay": 493,
      "ried": 494,
      "ade": 495,
      "ings": 496,
      "ĠĊ": 497,
      "ob": 498,
      "pot": 499,
      "Ġwor": 500,
      "Ġfind": 501,
      "ia": 502,
      "Ġaway": 503,
      "ty": 504,
      "Ġput": 505,
      "Ġex": 506,
      "Ġwhat": 507,
      "Ġsomething": 508,
      "Ġfrom": 509,
      "Ġmade": 510,
      "Ġthought": 511,
      "ened": 512,
      "Ġhome": 513,
      "Ġplaying": 514,
      "Ġco": 515,
      "ook": 516,
      "Ġevery": 517,
      "Ġwal": 518,
      "Ġmu": 519,
      "uc": 520,
      "ach": 521,
      "arn": 522,
      "ĠSpot": 523,
      "Ġran": 524,
      "ile": 525,
      "ĠF": 526,
      "ie": 527,
      "ĠJ": 528,
      "ave": 529,
      "Ġagain": 530,
      "Ġsome": 531,
      "Ġlaug": 532,
      "dd": 533,
      "Ġhouse": 534,
      "Ġdown": 535,
      "Ġfl": 536,
      "king": 537,
      "Ġtook": 538,
      "Ġscared": 539,
      "Ġpr": 540,
      "ny": 541,
      "ure": 542,
      "Ġtoys": 543,
      "Ġlearn": 544,
      "ĠYou": 545,
      "if": 546,
      "Ġwill": 547,
      "Ġbox": 548,
      "ick": 549,
      "ret": 550,
      "ab": 551,
      "ep": 552,
      "Ġmy": 553,
      "Ġaround": 554,
      "Ġthings": 555,
      "Ġyour": 556,
      "oud": 557,
      "Ġbl": 558,
      "uck": 559,
      "Ġwhen": 560,
      "ish": 561,
      "Ġlived": 562,
      "Ġfe": 563,
      "Ġthen": 564,
      "Ġsun": 565,
      "as": 566,
      "Ġsw": 567,
      ",\"": 568,
      "Ġch": 569,
      "us": 570,
      "pped": 571,
      "Ġab": 572,
      "ĠMia": 573,
      "ank": 574,
      "Ġget": 575,
      "ucy": 576,
      "Tim": 577,
      "ump": 578,
      "Th": 579,
      "Ġlot": 580,
      "ist": 581,
      "oth": 582,
      "Ġtried": 583,
      "ap": 584,
      "Ġknow": 585,
      "Ġsays": 586,
      "Ġgot": 587,
      "ited": 588,
      "Ġwho": 589,
      "Ġkne": 590,
      "ust": 591,
      "Ġmany": 592,
      "nder": 593,
      "Ġint": 594,
      "Ġabout": 595,
      "Lily": 596,
      "Ġpret": 597,
      "Ġdec": 598,
      "Ġany": 599,
      "Ġred": 600,
      "ĠD": 601,
      "ive": 602,
      "Ġknew": 603,
      "ace": 604,
      "ous": 605,
      "Ġmore": 606,
      "ise": 607,
      "Ġv": 608,
      "Ġcare": 609,
      "ally": 610,
      "Ġpic": 611,
      "au": 612,
      "qu": 613,
      "Ġhug": 614,
      "ĠLucy": 615,
      "Ġlearned": 616,
      "Ġpo": 617,
      "Ġwater": 618,
      "fter": 619,
      "Ġbecame": 620,
      "Ġbest": 621,
      "ause": 622,
      "Ġop": 623,
      "Ġgre": 624,
      "Ġexc": 625,
      "urp": 626,
      "ways": 627,
      "âĢ": 628,
      "Ġoutside": 629,
      "Ġlaughed": 630,
      "Ġlook": 631,
      "Ġalways": 632,
      "Ġdecid": 633,
      "Ġshow": 634,
      "Ġun": 635,
      "ant": 636,
      "ĠBob": 637,
      "Ġroom": 638,
      "fe": 639,
      "Ġdecided": 640,
      "Ġho": 641,
      "Ġbecause": 642,
      "Ġinto": 643,
      "ĠSo": 644,
      "Ġeat": 645,
      "ite": 646,
      "Ġjump": 647,
      "ĠAnd": 648,
      "Ġpe": 649,
      "Ġboth": 650,
      "ers": 651,
      "ĠMom": 652,
      "Ġdad": 653,
      "They": 654,
      "udd": 655,
      "Ġke": 656,
      "Ġone": 657,
      "nn": 658,
      "Ġthis": 659,
      "Ġexcited": 660,
      "Ġfast": 661,
      "Ġnice": 662,
      "ĠE": 663,
      "Ġfeel": 664,
      "Tom": 665,
      "Yes": 666,
      "Ġrun": 667,
      "Ġlong": 668,
      "Ġtold": 669,
      "Ġsk": 670,
      "Ġam": 671,
      "urpr": 672,
      "our": 673,
      "Ġinside": 674,
      "ull": 675,
      "Ġtr": 676,
      "Ġsurpr": 677,
      "Ġmo": 678,
      "ink": 679,
      "Ġpretty": 680,
      "iny": 681,
      "Ġsor": 682,
      "Wh": 683,
      "Ġtake": 684,
      "og": 685,
      "Ġsl": 686,
      "Ġeach": 687,
      "Ġgave": 688,
      "Ġmuch": 689,
      "Ġgra": 690,
      "lew": 691,
      "nna": 692,
      "Ġrock": 693,
      "Ġhow": 694,
      "Ġstr": 695,
      "ara": 696,
      "imal": 697,
      "Ġanimal": 698,
      "ged": 699,
      "Ġneed": 700,
      "Ġthan": 701,
      "But": 702,
      "ven": 703,
      "etter": 704,
      "Ġtow": 705,
      "Ġor": 706,
      "ĠC": 707,
      "Ġunder": 708,
      "ess": 709,
      "Ġold": 710,
      "Ġsorry": 711,
      "ge": 712,
      "ised": 713,
      "ro": 714,
      "urt": 715,
      "Ġcle": 716,
      "Ġfish": 717,
      "Ġwalked": 718,
      "Ġclo": 719,
      "and": 720,
      "Ġbear": 721,
      "ase": 722,
      "ast": 723,
      "Ġhand": 724,
      "urn": 725,
      "ĠWe": 726,
      "Ġkind": 727,
      "ĠHis": 728,
      "here": 729,
      "Ġhappened": 730,
      "Ġjust": 731,
      "Ġflow": 732,
      "Ġfood": 733,
      "Ġlist": 734,
      "Ġdidn": 735,
      "Ġte": 736,
      "Ġanimals": 737,
      "Ġhig": 738,
      "pl": 739,
      "Ġnear": 740,
      "Ġwat": 741,
      "Ġide": 742,
      "Ġtry": 743,
      "ched": 744,
      "Ġsky": 745,
      "ine": 746,
      "Ġsn": 747,
      "ving": 748,
      "Ġfi": 749,
      "rom": 750,
      "Ġus": 751,
      "Ġidea": 752,
      "Ġbetter": 753,
      "ĠAmy": 754,
      "Ġbug": 755,
      "Ġheard": 756,
      "gry": 757,
      "Ġits": 758,
      "Ġtw": 759,
      "Ġlet": 760,
      "pec": 761,
      "ate": 762,
      "able": 763,
      "ff": 764,
      "Ġen": 765,
      "Ġcareful": 766,
      "Ġshare": 767,
      "Ġif": 768,
      "Thank": 769,
      "Mom": 770,
      "Ġfly": 771,
      "Ġstor": 772,
      "ial": 773,
      "Ġflew": 774,
      "more": 775,
      "Ġanymore": 776,
      "ĠTh": 777,
      "Ġspec": 778,
      "Ġspecial": 779,
      "ion": 780,
      "Ġcom": 781,
      "Ġlots": 782,
      "Ġnever": 783,
      "Ġby": 784,
      "lf": 785,
      "ream": 786,
      "Ġdan": 787,
      "Ġbu": 788,
      "Ġfo": 789,
      "Ġwind": 790,
      "Ġdon": 791,
      "Ġtal": 792,
      "Ġclean": 793,
      "ort": 794,
      "Ġgr": 795,
      "Ġlove": 796,
      "rm": 797,
      "ber": 798,
      "Ġend": 799,
      "ĠThen": 800,
      "ople": 801,
      "Ġeven": 802,
      "Ġmag": 803,
      "Ġhard": 804,
      "Ġshiny": 805,
      "udden": 806,
      "Ġfore": 807,
      "Ġover": 808,
      "Ġcake": 809,
      "ak": 810,
      "Ġbook": 811,
      "Ġcol": 812,
      "Ġturn": 813,
      "Ġfam": 814,
      "Ġbad": 815,
      "Ġsafe": 816,
      "Ġafter": 817,
      "ady": 818,
      "ĠAnna": 819,
      "uddenly": 820,
      "Ġpeople": 821,
      "Ġproud": 822,
      "ĠEvery": 823,
      "Ġsurprised": 824,
      "pected": 825,
      "Let": 826,
      "Ġhigh": 827,
      "Ġcu": 828,
      "Ġhurt": 829,
      "Ġcome": 830,
      "imb": 831,
      "arden": 832,
      "Ġdoor": 833,
      "Ġgarden": 834,
      "bb": 835,
      "Ġground": 836,
      "Ġopened": 837,
      "Ġpicked": 838,
      "Ġloud": 839,
      "Ġclimb": 840,
      "expected": 841,
      "Ġunexpected": 842,
      "Ġgl": 843,
      "Ġche": 844,
      "ild": 845,
      "Ġim": 846,
      "As": 847,
      "Ġgive": 848,
      "Ġway": 849,
      "ail": 850,
      "'m": 851,
      "Ġthanked": 852,
      "Ġcolor": 853,
      "Ġblue": 854,
      "Ġstill": 855,
      "Ġever": 856,
      "Ġhugged": 857,
      "ĠFrom": 858,
      "Ġcall": 859,
      "Ġfar": 860,
      "ip": 861,
      "ĠHer": 862,
      "ĠSara": 863,
      "ĠWhen": 864,
      "No": 865,
      "Ġoff": 866,
      "Ġmagic": 867,
      "iz": 868,
      "ough": 869,
      "age": 870,
      "ummy": 871,
      "ĠK": 872,
      "Ġjumped": 873,
      "Ġshould": 874,
      "Ġfamily": 875,
      "Ġpar": 876,
      "ool": 877,
      "Ġkid": 878,
      "Ġsmile": 879,
      "hes": 880,
      "uff": 881,
      "Ġplace": 882,
      "kay": 883,
      "Ġwalk": 884,
      "Ġnow": 885,
      "ct": 886,
      "ĠIn": 887,
      "Ġgreat": 888,
      "em": 889,
      "Ġqu": 890,
      "les": 891,
      "Ġstrong": 892,
      "Ġstay": 893,
      "Ġunt": 894,
      "Ġsto": 895,
      "aut": 896,
      "Ġforest": 897,
      "ture": 898,
      "ane": 899,
      "Ġbra": 900,
      "itty": 901,
      "ĠP": 902,
      "Ġfrog": 903,
      "Ġbro": 904,
      "Ġuntil": 905,
      "oon": 906,
      "Ġbeaut": 907,
      "dy": 908,
      "Ġsqu": 909,
      "Ġstick": 910,
      "Ġnext": 911,
      "Ġboat": 912,
      "lease": 913,
      "ning": 914,
      "Ġhappily": 915,
      "Ġlisten": 916,
      "aking": 917,
      "Ġkids": 918,
      "Ġtra": 919,
      "ies": 920,
      "iful": 921,
      "Ġbeautiful": 922,
      "Ġapp": 923,
      "th": 924,
      "Ġhelped": 925,
      "Ġdra": 926,
      "Ġshowed": 927,
      "Ġclos": 928,
      "be": 929,
      "Ġimp": 930,
      "Ġstory": 931,
      "unny": 932,
      "oy": 933,
      "Ġwhile": 934,
      "Ġtown": 935,
      "rel": 936,
      "pt": 937,
      "Ġrain": 938,
      "ress": 939,
      "Ġpicture": 940,
      "Ġbeing": 941,
      "Ġrem": 942,
      "Ġeveryone": 943,
      "It": 944,
      "ary": 945,
      "ree": 946,
      "Ġmor": 947,
      "Ġhat": 948,
      "Ġcalled": 949,
      "Ġmet": 950,
      "Ġstopped": 951,
      "Ġad": 952,
      "Ġgame": 953,
      "Now": 954,
      "He": 955,
      "Ġwo": 956,
      "Can": 957,
      "Ġangry": 958,
      "ger": 959,
      "uffy": 960,
      "Ġsoft": 961,
      "Ġopen": 962,
      "Ġtruck": 963,
      "Ġkeep": 964,
      "When": 965,
      "Ġcry": 966,
      "Ġyummy": 967,
      "Ġlost": 968,
      "Ġbed": 969,
      "ĠLet": 970,
      "ĠSally": 971,
      "Ġwarm": 972,
      "by": 973,
      "vent": 974,
      "Ġbrave": 975,
      "Ġmouse": 976,
      "ĠWh": 977,
      "Ġate": 978,
      "ĠKitty": 979,
      "ished": 980,
      "Ġde": 981,
      "fore": 982,
      "Ġdoll": 983,
      "so": 984,
      "Ġcouldn": 985,
      "Ġwatch": 986,
      "Ġleave": 987,
      "Ġalso": 988,
      "dded": 989,
      "Ġfell": 990,
      "Ġgreen": 991,
      "Ġface": 992,
      "Ġtwo": 993,
      "gan": 994,
      "iss": 995,
      "Ġflowers": 996,
      "bit": 997,
      "What": 998,
      "ĠR": 999,
      "ble": 1000,
      "Ġnoise": 1001,
      "abbit": 1002,
      "irst": 1003,
      "owl": 1004,
      "Ġwhere": 1005,
      "az": 1006,
      "ock": 1007,
      "Ġsoon": 1008,
      "self": 1009,
      "Ġslide": 1010,
      "Ġrabbit": 1011,
      "Ġhole": 1012,
      "luffy": 1013,
      "Ġbefore": 1014,
      "irrel": 1015,
      "Ġpus": 1016,
      "ired": 1017,
      "Ġsat": 1018,
      "illy": 1019,
      "Ġhear": 1020,
      "Ġuse": 1021,
      "âĢĿ": 1022,
      "Hi": 1023
    },
    "merges": [
      [
        "Ġ",
        "t"
      ],
      [
        "h",
        "e"
      ],
      [
        "Ġ",
        "a"
      ],
      [
        "Ġ",
        "s"
      ],
      [
        "n",
        "d"
      ],
      [
        "Ġ",
        "w"
      ],
      [
        "Ġt",
        "he"
      ],
      [
        "e",
        "d"
      ],
      [
        "Ġ",
        "b"
      ],
      [
        "Ġt",
        "o"
      ],
      [
        "Ġa",
        "nd"
      ],
      [
        "Ġ",
        "h"
      ],
      [
        "Ġ",
        "f"
      ],
      [
        "i",
        "n"
      ],
      [
        "Ġ",
        "T"
      ],
      [
        "Ġw",
        "a"
      ],
      [
        "r",
        "e"
      ],
      [
        "i",
        "t"
      ],
      [
        "o",
        "u"
      ],
      [
        "Ġ",
        "l"
      ],
      [
        "Ġ",
        "d"
      ],
      [
        "Ġ",
        "c"
      ],
      [
        "Ġ",
        "p"
      ],
      [
        "a",
        "y"
      ],
      [
        "Ġ",
        "m"
      ],
      [
        "e",
        "r"
      ],
      [
        "Ġwa",
        "s"
      ],
      [
        "o",
        "m"
      ],
      [
        "ĠT",
        "he"
      ],
      [
        "Ġ",
        "he"
      ],
      [
        "i",
        "s"
      ],
      [
        "a",
        "r"
      ],
      [
        "Ġ",
        "n"
      ],
      [
        "i",
        "m"
      ],
      [
        "o",
        "n"
      ],
      [
        "Ġs",
        "a"
      ],
      [
        "i",
        "d"
      ],
      [
        "l",
        "l"
      ],
      [
        "Ġh",
        "a"
      ],
      [
        "Ġ",
        "g"
      ],
      [
        "a",
        "t"
      ],
      [
        "Ġ",
        "S"
      ],
      [
        "in",
        "g"
      ],
      [
        "o",
        "t"
      ],
      [
        "e",
        "n"
      ],
      [
        "a",
        "n"
      ],
      [
        "l",
        "e"
      ],
      [
        "o",
        "r"
      ],
      [
        "e",
        "nd"
      ],
      [
        "i",
        "r"
      ],
      [
        "o",
        "f"
      ],
      [
        "a",
        "m"
      ],
      [
        "e",
        "t"
      ],
      [
        "Ġ",
        "H"
      ],
      [
        "Ġ",
        "it"
      ],
      [
        "Ġt",
        "h"
      ],
      [
        "i",
        "g"
      ],
      [
        "ĠThe",
        "y"
      ],
      [
        "Ġ",
        "in"
      ],
      [
        "i",
        "l"
      ],
      [
        "Ġp",
        "l"
      ],
      [
        "ĠH",
        "e"
      ],
      [
        "Ġ",
        "\""
      ],
      [
        "o",
        "w"
      ],
      [
        "v",
        "er"
      ],
      [
        "r",
        "i"
      ],
      [
        "u",
        "t"
      ],
      [
        "Ġb",
        "e"
      ],
      [
        "Ġ",
        "u"
      ],
      [
        "Ġsa",
        "id"
      ],
      [
        "Ġpl",
        "ay"
      ],
      [
        "it",
        "h"
      ],
      [
        "Ġd",
        "ay"
      ],
      [
        "Ġw",
        "ith"
      ],
      [
        "p",
        "p"
      ],
      [
        "O",
        "n"
      ],
      [
        "Ġ",
        "y"
      ],
      [
        "o",
        "o"
      ],
      [
        "k",
        "ed"
      ],
      [
        "Ġ",
        "r"
      ],
      [
        "Ġhe",
        "r"
      ],
      [
        "e",
        "x"
      ],
      [
        "c",
        "e"
      ],
      [
        "Ġ",
        "I"
      ],
      [
        "ĠS",
        "he"
      ],
      [
        "l",
        "d"
      ],
      [
        "ĠT",
        "im"
      ],
      [
        "Ġh",
        "is"
      ],
      [
        "Ġs",
        "t"
      ],
      [
        "k",
        "e"
      ],
      [
        "Ġb",
        "ig"
      ],
      [
        "n",
        "t"
      ],
      [
        "c",
        "k"
      ],
      [
        "Ġy",
        "ou"
      ],
      [
        "ver",
        "y"
      ],
      [
        "s",
        "t"
      ],
      [
        "v",
        "e"
      ],
      [
        "Ġ",
        "on"
      ],
      [
        "u",
        "n"
      ],
      [
        "Ġha",
        "pp"
      ],
      [
        "ri",
        "end"
      ],
      [
        "Ġf",
        "riend"
      ],
      [
        "a",
        "ll"
      ],
      [
        "il",
        "y"
      ],
      [
        "ex",
        "t"
      ],
      [
        "Ġ",
        "L"
      ],
      [
        "Ġthe",
        "y"
      ],
      [
        "of",
        "t"
      ],
      [
        "Ġw",
        "e"
      ],
      [
        "Ġha",
        "d"
      ],
      [
        "Ġn",
        "ot"
      ],
      [
        "Ġl",
        "i"
      ],
      [
        "Ġu",
        "p"
      ],
      [
        "he",
        "r"
      ],
      [
        "Ġwa",
        "nt"
      ],
      [
        "Ġ",
        "of"
      ],
      [
        "a",
        "d"
      ],
      [
        "it",
        "t"
      ],
      [
        "<",
        "|"
      ],
      [
        "|",
        ">"
      ],
      [
        "end",
        "oft"
      ],
      [
        "endoft",
        "ext"
      ],
      [
        "s",
        "e"
      ],
      [
        "Ġ",
        "B"
      ],
      [
        "Ġd",
        "o"
      ],
      [
        "Ġ",
        "e"
      ],
      [
        "Ġhapp",
        "y"
      ],
      [
        "en",
        "t"
      ],
      [
        "Ġ",
        "very"
      ],
      [
        "Ġ",
        "M"
      ],
      [
        "e",
        "s"
      ],
      [
        "Ġth",
        "at"
      ],
      [
        "Ġsa",
        "w"
      ],
      [
        "On",
        "e"
      ],
      [
        "'",
        "s"
      ],
      [
        "ou",
        "ld"
      ],
      [
        "Ġm",
        "om"
      ],
      [
        "Ġf",
        "or"
      ],
      [
        "Ġs",
        "h"
      ],
      [
        "itt",
        "le"
      ],
      [
        "Ġl",
        "ittle"
      ],
      [
        "Ġs",
        "he"
      ],
      [
        "c",
        "h"
      ],
      [
        "im",
        "e"
      ],
      [
        "Ġn",
        "am"
      ],
      [
        ".",
        "\""
      ],
      [
        "Ġt",
        "ime"
      ],
      [
        "Ġ",
        "k"
      ],
      [
        "ou",
        "nd"
      ],
      [
        "Ġs",
        "o"
      ],
      [
        "Ġthe",
        "re"
      ],
      [
        "Ġnam",
        "ed"
      ],
      [
        "Ġs",
        "m"
      ],
      [
        "Ġb",
        "o"
      ],
      [
        "Ġwe",
        "re"
      ],
      [
        "ĠL",
        "ily"
      ],
      [
        "Ġn",
        "e"
      ],
      [
        "Ġwant",
        "ed"
      ],
      [
        "Ġb",
        "ut"
      ],
      [
        "ou",
        "t"
      ],
      [
        "T",
        "he"
      ],
      [
        "Ġfriend",
        "s"
      ],
      [
        "v",
        "ed"
      ],
      [
        "!",
        "\""
      ],
      [
        "h",
        "t"
      ],
      [
        "ĠT",
        "om"
      ],
      [
        "ir",
        "d"
      ],
      [
        "e",
        "l"
      ],
      [
        "Ġb",
        "ird"
      ],
      [
        "a",
        "l"
      ],
      [
        "Ġa",
        "n"
      ],
      [
        "a",
        "ke"
      ],
      [
        "Ġto",
        "o"
      ],
      [
        "om",
        "e"
      ],
      [
        "ĠI",
        "t"
      ],
      [
        "u",
        "g"
      ],
      [
        "id",
        "e"
      ],
      [
        "Ġw",
        "ent"
      ],
      [
        "Ġw",
        "h"
      ],
      [
        "Ġhe",
        "l"
      ],
      [
        "On",
        "ce"
      ],
      [
        "Ġ",
        "is"
      ],
      [
        "Ġa",
        "ll"
      ],
      [
        "Ġhel",
        "p"
      ],
      [
        "u",
        "e"
      ],
      [
        "Ġl",
        "oo"
      ],
      [
        "Ġl",
        "o"
      ],
      [
        "t",
        "er"
      ],
      [
        "Ġ",
        "A"
      ],
      [
        "Ġup",
        "on"
      ],
      [
        "r",
        "y"
      ],
      [
        "o",
        "re"
      ],
      [
        "i",
        "nd"
      ],
      [
        "Ġf",
        "un"
      ],
      [
        "g",
        "et"
      ],
      [
        "Ġto",
        "y"
      ],
      [
        "i",
        "ll"
      ],
      [
        "am",
        "e"
      ],
      [
        "Ġa",
        "s"
      ],
      [
        "Ġa",
        "t"
      ],
      [
        "r",
        "a"
      ],
      [
        "Ġ",
        "j"
      ],
      [
        "Ġd",
        "id"
      ],
      [
        "get",
        "her"
      ],
      [
        "Ġ",
        "re"
      ],
      [
        "u",
        "r"
      ],
      [
        "Ġ",
        "o"
      ],
      [
        "Ġs",
        "e"
      ],
      [
        "Ġto",
        "gether"
      ],
      [
        "a",
        "ck"
      ],
      [
        "Ġc",
        "at"
      ],
      [
        "l",
        "y"
      ],
      [
        "Ġt",
        "re"
      ],
      [
        "oo",
        "d"
      ],
      [
        "i",
        "c"
      ],
      [
        "t",
        "ed"
      ],
      [
        "Ġdo",
        "g"
      ],
      [
        "Ġc",
        "ould"
      ],
      [
        "Ġc",
        "an"
      ],
      [
        "Ġthe",
        "ir"
      ],
      [
        "ar",
        "d"
      ],
      [
        "e",
        "c"
      ],
      [
        "ar",
        "k"
      ],
      [
        "Ġg",
        "ir"
      ],
      [
        "Ġplay",
        "ed"
      ],
      [
        "Ġh",
        "im"
      ],
      [
        "Ġb",
        "all"
      ],
      [
        "?",
        "\""
      ],
      [
        "Ġgir",
        "l"
      ],
      [
        "Ġr",
        "o"
      ],
      [
        "w",
        "ay"
      ],
      [
        "Ġg",
        "o"
      ],
      [
        "he",
        "d"
      ],
      [
        "m",
        "y"
      ],
      [
        "Ġa",
        "re"
      ],
      [
        "Ġ",
        "out"
      ],
      [
        "Ġl",
        "e"
      ],
      [
        "Ġf",
        "r"
      ],
      [
        "a",
        "in"
      ],
      [
        "Ġk",
        "n"
      ],
      [
        "he",
        "n"
      ],
      [
        "Ġthe",
        "m"
      ],
      [
        "u",
        "m"
      ],
      [
        "'",
        "t"
      ],
      [
        "a",
        "x"
      ],
      [
        "Ġsa",
        "d"
      ],
      [
        "u",
        "l"
      ],
      [
        "Ġbo",
        "y"
      ],
      [
        "Ġtre",
        "e"
      ],
      [
        "ot",
        "her"
      ],
      [
        "Ġha",
        "ve"
      ],
      [
        "Ġm",
        "an"
      ],
      [
        "Ġc",
        "l"
      ],
      [
        "Ġlo",
        "ved"
      ],
      [
        "Ġloo",
        "ked"
      ],
      [
        "ou",
        "g"
      ],
      [
        "Ġf",
        "ound"
      ],
      [
        "Ġs",
        "p"
      ],
      [
        "Ġst",
        "ar"
      ],
      [
        "ĠS",
        "ue"
      ],
      [
        "on",
        "e"
      ],
      [
        "h",
        "ing"
      ],
      [
        "Ġs",
        "c"
      ],
      [
        "Ġb",
        "ack"
      ],
      [
        "ow",
        "n"
      ],
      [
        "ĠM",
        "ax"
      ],
      [
        "a",
        "re"
      ],
      [
        "Ġli",
        "ke"
      ],
      [
        "f",
        "ul"
      ],
      [
        "s",
        "ide"
      ],
      [
        "Ġm",
        "e"
      ],
      [
        "Ġbe",
        "c"
      ],
      [
        "Ġp",
        "ark"
      ],
      [
        "ig",
        "ht"
      ],
      [
        "on",
        "g"
      ],
      [
        "Ġc",
        "ar"
      ],
      [
        "o",
        "p"
      ],
      [
        "el",
        "t"
      ],
      [
        "Ġ",
        "One"
      ],
      [
        "Ġli",
        "ked"
      ],
      [
        "Ġw",
        "ould"
      ],
      [
        "Ġm",
        "ake"
      ],
      [
        "r",
        "ound"
      ],
      [
        "Ġl",
        "a"
      ],
      [
        "Ġf",
        "a"
      ],
      [
        "Ġf",
        "elt"
      ],
      [
        "Y",
        "ou"
      ],
      [
        "Ġ",
        "W"
      ],
      [
        "e",
        "ll"
      ],
      [
        "Ġse",
        "e"
      ],
      [
        "ĠB",
        "ut"
      ],
      [
        "om",
        "et"
      ],
      [
        "Ġas",
        "ked"
      ],
      [
        "a",
        "g"
      ],
      [
        "Ġne",
        "w"
      ],
      [
        "Ġn",
        "o"
      ],
      [
        "i",
        "ce"
      ],
      [
        "ĠS",
        "am"
      ],
      [
        "ou",
        "se"
      ],
      [
        "Ġstar",
        "ted"
      ],
      [
        "ar",
        "ed"
      ],
      [
        "Ġc",
        "ame"
      ],
      [
        "ĠB",
        "en"
      ],
      [
        "Ġa",
        "l"
      ],
      [
        "Ġ",
        "other"
      ],
      [
        "oug",
        "ht"
      ],
      [
        "il",
        "ed"
      ],
      [
        "Ġs",
        "omet"
      ],
      [
        "Ġa",
        "g"
      ],
      [
        "Ġg",
        "ood"
      ],
      [
        "Ġsm",
        "all"
      ],
      [
        "s",
        "s"
      ],
      [
        "Ġb",
        "r"
      ],
      [
        "Ġsm",
        "iled"
      ],
      [
        "Ġs",
        "ay"
      ],
      [
        "ri",
        "ed"
      ],
      [
        "ad",
        "e"
      ],
      [
        "ing",
        "s"
      ],
      [
        "Ġ",
        "Ċ"
      ],
      [
        "o",
        "b"
      ],
      [
        "p",
        "ot"
      ],
      [
        "Ġw",
        "or"
      ],
      [
        "Ġf",
        "ind"
      ],
      [
        "i",
        "a"
      ],
      [
        "Ġa",
        "way"
      ],
      [
        "t",
        "y"
      ],
      [
        "Ġp",
        "ut"
      ],
      [
        "Ġ",
        "ex"
      ],
      [
        "Ġwh",
        "at"
      ],
      [
        "Ġsomet",
        "hing"
      ],
      [
        "Ġfr",
        "om"
      ],
      [
        "Ġm",
        "ade"
      ],
      [
        "Ġth",
        "ought"
      ],
      [
        "en",
        "ed"
      ],
      [
        "Ġh",
        "ome"
      ],
      [
        "Ġplay",
        "ing"
      ],
      [
        "Ġc",
        "o"
      ],
      [
        "oo",
        "k"
      ],
      [
        "Ġe",
        "very"
      ],
      [
        "Ġwa",
        "l"
      ],
      [
        "Ġm",
        "u"
      ],
      [
        "u",
        "c"
      ],
      [
        "a",
        "ch"
      ],
      [
        "ar",
        "n"
      ],
      [
        "ĠS",
        "pot"
      ],
      [
        "Ġr",
        "an"
      ],
      [
        "i",
        "le"
      ],
      [
        "Ġ",
        "F"
      ],
      [
        "i",
        "e"
      ],
      [
        "Ġ",
        "J"
      ],
      [
        "a",
        "ve"
      ],
      [
        "Ġag",
        "ain"
      ],
      [
        "Ġs",
        "ome"
      ],
      [
        "Ġla",
        "ug"
      ],
      [
        "d",
        "d"
      ],
      [
        "Ġh",
        "ouse"
      ],
      [
        "Ġd",
        "own"
      ],
      [
        "Ġf",
        "l"
      ],
      [
        "k",
        "ing"
      ],
      [
        "Ġtoo",
        "k"
      ],
      [
        "Ġsc",
        "ared"
      ],
      [
        "Ġp",
        "r"
      ],
      [
        "n",
        "y"
      ],
      [
        "u",
        "re"
      ],
      [
        "Ġtoy",
        "s"
      ],
      [
        "Ġle",
        "arn"
      ],
      [
        "Ġ",
        "You"
      ],
      [
        "i",
        "f"
      ],
      [
        "Ġw",
        "ill"
      ],
      [
        "Ġbo",
        "x"
      ],
      [
        "i",
        "ck"
      ],
      [
        "re",
        "t"
      ],
      [
        "a",
        "b"
      ],
      [
        "e",
        "p"
      ],
      [
        "Ġm",
        "y"
      ],
      [
        "Ġa",
        "round"
      ],
      [
        "Ġth",
        "ings"
      ],
      [
        "Ġyou",
        "r"
      ],
      [
        "ou",
        "d"
      ],
      [
        "Ġb",
        "l"
      ],
      [
        "u",
        "ck"
      ],
      [
        "Ġw",
        "hen"
      ],
      [
        "is",
        "h"
      ],
      [
        "Ġli",
        "ved"
      ],
      [
        "Ġf",
        "e"
      ],
      [
        "Ġthe",
        "n"
      ],
      [
        "Ġs",
        "un"
      ],
      [
        "a",
        "s"
      ],
      [
        "Ġs",
        "w"
      ],
      [
        ",",
        "\""
      ],
      [
        "Ġc",
        "h"
      ],
      [
        "u",
        "s"
      ],
      [
        "pp",
        "ed"
      ],
      [
        "Ġa",
        "b"
      ],
      [
        "ĠM",
        "ia"
      ],
      [
        "an",
        "k"
      ],
      [
        "Ġg",
        "et"
      ],
      [
        "uc",
        "y"
      ],
      [
        "T",
        "im"
      ],
      [
        "um",
        "p"
      ],
      [
        "T",
        "h"
      ],
      [
        "Ġl",
        "ot"
      ],
      [
        "is",
        "t"
      ],
      [
        "ot",
        "h"
      ],
      [
        "Ġt",
        "ried"
      ],
      [
        "a",
        "p"
      ],
      [
        "Ġkn",
        "ow"
      ],
      [
        "Ġsay",
        "s"
      ],
      [
        "Ġg",
        "ot"
      ],
      [
        "it",
        "ed"
      ],
      [
        "Ġwh",
        "o"
      ],
      [
        "Ġkn",
        "e"
      ],
      [
        "u",
        "st"
      ],
      [
        "Ġman",
        "y"
      ],
      [
        "nd",
        "er"
      ],
      [
        "Ġin",
        "t"
      ],
      [
        "Ġab",
        "out"
      ],
      [
        "L",
        "ily"
      ],
      [
        "Ġp",
        "ret"
      ],
      [
        "Ġd",
        "ec"
      ],
      [
        "Ġan",
        "y"
      ],
      [
        "Ġr",
        "ed"
      ],
      [
        "Ġ",
        "D"
      ],
      [
        "i",
        "ve"
      ],
      [
        "Ġkne",
        "w"
      ],
      [
        "a",
        "ce"
      ],
      [
        "ou",
        "s"
      ],
      [
        "Ġm",
        "ore"
      ],
      [
        "is",
        "e"
      ],
      [
        "Ġ",
        "v"
      ],
      [
        "Ġc",
        "are"
      ],
      [
        "all",
        "y"
      ],
      [
        "Ġp",
        "ic"
      ],
      [
        "a",
        "u"
      ],
      [
        "q",
        "u"
      ],
      [
        "Ġh",
        "ug"
      ],
      [
        "ĠL",
        "ucy"
      ],
      [
        "Ġlearn",
        "ed"
      ],
      [
        "Ġp",
        "o"
      ],
      [
        "Ġwa",
        "ter"
      ],
      [
        "f",
        "ter"
      ],
      [
        "Ġbec",
        "ame"
      ],
      [
        "Ġbe",
        "st"
      ],
      [
        "au",
        "se"
      ],
      [
        "Ġo",
        "p"
      ],
      [
        "Ġg",
        "re"
      ],
      [
        "Ġex",
        "c"
      ],
      [
        "ur",
        "p"
      ],
      [
        "way",
        "s"
      ],
      [
        "â",
        "Ģ"
      ],
      [
        "Ġout",
        "side"
      ],
      [
        "Ġlaug",
        "hed"
      ],
      [
        "Ġloo",
        "k"
      ],
      [
        "Ġal",
        "ways"
      ],
      [
        "Ġdec",
        "id"
      ],
      [
        "Ġsh",
        "ow"
      ],
      [
        "Ġu",
        "n"
      ],
      [
        "an",
        "t"
      ],
      [
        "ĠB",
        "ob"
      ],
      [
        "Ġro",
        "om"
      ],
      [
        "f",
        "e"
      ],
      [
        "Ġdecid",
        "ed"
      ],
      [
        "Ġh",
        "o"
      ],
      [
        "Ġbec",
        "ause"
      ],
      [
        "Ġint",
        "o"
      ],
      [
        "ĠS",
        "o"
      ],
      [
        "Ġe",
        "at"
      ],
      [
        "it",
        "e"
      ],
      [
        "Ġj",
        "ump"
      ],
      [
        "ĠA",
        "nd"
      ],
      [
        "Ġp",
        "e"
      ],
      [
        "Ġb",
        "oth"
      ],
      [
        "er",
        "s"
      ],
      [
        "ĠM",
        "om"
      ],
      [
        "Ġd",
        "ad"
      ],
      [
        "The",
        "y"
      ],
      [
        "u",
        "dd"
      ],
      [
        "Ġ",
        "ke"
      ],
      [
        "Ġon",
        "e"
      ],
      [
        "n",
        "n"
      ],
      [
        "Ġth",
        "is"
      ],
      [
        "Ġexc",
        "ited"
      ],
      [
        "Ġfa",
        "st"
      ],
      [
        "Ġn",
        "ice"
      ],
      [
        "Ġ",
        "E"
      ],
      [
        "Ġfe",
        "el"
      ],
      [
        "T",
        "om"
      ],
      [
        "Y",
        "es"
      ],
      [
        "Ġr",
        "un"
      ],
      [
        "Ġl",
        "ong"
      ],
      [
        "Ġto",
        "ld"
      ],
      [
        "Ġs",
        "k"
      ],
      [
        "Ġa",
        "m"
      ],
      [
        "urp",
        "r"
      ],
      [
        "ou",
        "r"
      ],
      [
        "Ġin",
        "side"
      ],
      [
        "u",
        "ll"
      ],
      [
        "Ġt",
        "r"
      ],
      [
        "Ġs",
        "urpr"
      ],
      [
        "Ġm",
        "o"
      ],
      [
        "in",
        "k"
      ],
      [
        "Ġpret",
        "ty"
      ],
      [
        "in",
        "y"
      ],
      [
        "Ġs",
        "or"
      ],
      [
        "W",
        "h"
      ],
      [
        "Ġt",
        "ake"
      ],
      [
        "o",
        "g"
      ],
      [
        "Ġs",
        "l"
      ],
      [
        "Ġe",
        "ach"
      ],
      [
        "Ġg",
        "ave"
      ],
      [
        "Ġmu",
        "ch"
      ],
      [
        "Ġg",
        "ra"
      ],
      [
        "le",
        "w"
      ],
      [
        "nn",
        "a"
      ],
      [
        "Ġro",
        "ck"
      ],
      [
        "Ġh",
        "ow"
      ],
      [
        "Ġst",
        "r"
      ],
      [
        "ar",
        "a"
      ],
      [
        "im",
        "al"
      ],
      [
        "Ġan",
        "imal"
      ],
      [
        "g",
        "ed"
      ],
      [
        "Ġne",
        "ed"
      ],
      [
        "Ġth",
        "an"
      ],
      [
        "B",
        "ut"
      ],
      [
        "v",
        "en"
      ],
      [
        "et",
        "ter"
      ],
      [
        "Ġto",
        "w"
      ],
      [
        "Ġ",
        "or"
      ],
      [
        "Ġ",
        "C"
      ],
      [
        "Ġu",
        "nder"
      ],
      [
        "es",
        "s"
      ],
      [
        "Ġo",
        "ld"
      ],
      [
        "Ġsor",
        "ry"
      ],
      [
        "g",
        "e"
      ],
      [
        "is",
        "ed"
      ],
      [
        "r",
        "o"
      ],
      [
        "ur",
        "t"
      ],
      [
        "Ġc",
        "le"
      ],
      [
        "Ġf",
        "ish"
      ],
      [
        "Ġwal",
        "ked"
      ],
      [
        "Ġcl",
        "o"
      ],
      [
        "a",
        "nd"
      ],
      [
        "Ġbe",
        "ar"
      ],
      [
        "a",
        "se"
      ],
      [
        "a",
        "st"
      ],
      [
        "Ġha",
        "nd"
      ],
      [
        "ur",
        "n"
      ],
      [
        "ĠW",
        "e"
      ],
      [
        "Ġk",
        "ind"
      ],
      [
        "ĠH",
        "is"
      ],
      [
        "he",
        "re"
      ],
      [
        "Ġhapp",
        "ened"
      ],
      [
        "Ġj",
        "ust"
      ],
      [
        "Ġfl",
        "ow"
      ],
      [
        "Ġf",
        "ood"
      ],
      [
        "Ġl",
        "ist"
      ],
      [
        "Ġdid",
        "n"
      ],
      [
        "Ġt",
        "e"
      ],
      [
        "Ġanimal",
        "s"
      ],
      [
        "Ġh",
        "ig"
      ],
      [
        "p",
        "l"
      ],
      [
        "Ġne",
        "ar"
      ],
      [
        "Ġwa",
        "t"
      ],
      [
        "Ġ",
        "ide"
      ],
      [
        "Ġt",
        "ry"
      ],
      [
        "c",
        "hed"
      ],
      [
        "Ġsk",
        "y"
      ],
      [
        "in",
        "e"
      ],
      [
        "Ġs",
        "n"
      ],
      [
        "v",
        "ing"
      ],
      [
        "Ġf",
        "i"
      ],
      [
        "r",
        "om"
      ],
      [
        "Ġu",
        "s"
      ],
      [
        "Ġide",
        "a"
      ],
      [
        "Ġb",
        "etter"
      ],
      [
        "ĠA",
        "my"
      ],
      [
        "Ġb",
        "ug"
      ],
      [
        "Ġhe",
        "ard"
      ],
      [
        "g",
        "ry"
      ],
      [
        "Ġit",
        "s"
      ],
      [
        "Ġt",
        "w"
      ],
      [
        "Ġl",
        "et"
      ],
      [
        "p",
        "ec"
      ],
      [
        "at",
        "e"
      ],
      [
        "ab",
        "le"
      ],
      [
        "f",
        "f"
      ],
      [
        "Ġ",
        "en"
      ],
      [
        "Ġcare",
        "ful"
      ],
      [
        "Ġsh",
        "are"
      ],
      [
        "Ġ",
        "if"
      ],
      [
        "Th",
        "ank"
      ],
      [
        "M",
        "om"
      ],
      [
        "Ġf",
        "ly"
      ],
      [
        "Ġst",
        "or"
      ],
      [
        "i",
        "al"
      ],
      [
        "Ġf",
        "lew"
      ],
      [
        "m",
        "ore"
      ],
      [
        "Ġany",
        "more"
      ],
      [
        "ĠT",
        "h"
      ],
      [
        "Ġsp",
        "ec"
      ],
      [
        "Ġspec",
        "ial"
      ],
      [
        "i",
        "on"
      ],
      [
        "Ġc",
        "om"
      ],
      [
        "Ġlot",
        "s"
      ],
      [
        "Ġne",
        "ver"
      ],
      [
        "Ġb",
        "y"
      ],
      [
        "l",
        "f"
      ],
      [
        "re",
        "am"
      ],
      [
        "Ġd",
        "an"
      ],
      [
        "Ġb",
        "u"
      ],
      [
        "Ġf",
        "o"
      ],
      [
        "Ġw",
        "ind"
      ],
      [
        "Ġd",
        "on"
      ],
      [
        "Ġt",
        "al"
      ],
      [
        "Ġcle",
        "an"
      ],
      [
        "or",
        "t"
      ],
      [
        "Ġg",
        "r"
      ],
      [
        "Ġlo",
        "ve"
      ],
      [
        "r",
        "m"
      ],
      [
        "b",
        "er"
      ],
      [
        "Ġ",
        "end"
      ],
      [
        "ĠThe",
        "n"
      ],
      [
        "op",
        "le"
      ],
      [
        "Ġe",
        "ven"
      ],
      [
        "Ġm",
        "ag"
      ],
      [
        "Ġh",
        "ard"
      ],
      [
        "Ġsh",
        "iny"
      ],
      [
        "udd",
        "en"
      ],
      [
        "Ġf",
        "ore"
      ],
      [
        "Ġo",
        "ver"
      ],
      [
        "Ġc",
        "ake"
      ],
      [
        "a",
        "k"
      ],
      [
        "Ġb",
        "ook"
      ],
      [
        "Ġco",
        "l"
      ],
      [
        "Ġt",
        "urn"
      ],
      [
        "Ġf",
        "am"
      ],
      [
        "Ġb",
        "ad"
      ],
      [
        "Ġsa",
        "fe"
      ],
      [
        "Ġa",
        "fter"
      ],
      [
        "ad",
        "y"
      ],
      [
        "ĠA",
        "nna"
      ],
      [
        "udden",
        "ly"
      ],
      [
        "Ġpe",
        "ople"
      ],
      [
        "Ġpr",
        "oud"
      ],
      [
        "ĠE",
        "very"
      ],
      [
        "Ġsurpr",
        "ised"
      ],
      [
        "pec",
        "ted"
      ],
      [
        "L",
        "et"
      ],
      [
        "Ġhig",
        "h"
      ],
      [
        "Ġc",
        "u"
      ],
      [
        "Ġh",
        "urt"
      ],
      [
        "Ġc",
        "ome"
      ],
      [
        "im",
        "b"
      ],
      [
        "ard",
        "en"
      ],
      [
        "Ġdo",
        "or"
      ],
      [
        "Ġg",
        "arden"
      ],
      [
        "b",
        "b"
      ],
      [
        "Ġg",
        "round"
      ],
      [
        "Ġop",
        "ened"
      ],
      [
        "Ġpic",
        "ked"
      ],
      [
        "Ġl",
        "oud"
      ],
      [
        "Ġcl",
        "imb"
      ],
      [
        "ex",
        "pected"
      ],
      [
        "Ġun",
        "expected"
      ],
      [
        "Ġg",
        "l"
      ],
      [
        "Ġc",
        "he"
      ],
      [
        "il",
        "d"
      ],
      [
        "Ġ",
        "im"
      ],
      [
        "A",
        "s"
      ],
      [
        "Ġg",
        "ive"
      ],
      [
        "Ġwa",
        "y"
      ],
      [
        "a",
        "il"
      ],
      [
        "'",
        "m"
      ],
      [
        "Ġthan",
        "ked"
      ],
      [
        "Ġcol",
        "or"
      ],
      [
        "Ġbl",
        "ue"
      ],
      [
        "Ġst",
        "ill"
      ],
      [
        "Ġe",
        "ver"
      ],
      [
        "Ġhug",
        "ged"
      ],
      [
        "ĠF",
        "rom"
      ],
      [
        "Ġc",
        "all"
      ],
      [
        "Ġf",
        "ar"
      ],
      [
        "i",
        "p"
      ],
      [
        "ĠH",
        "er"
      ],
      [
        "ĠS",
        "ara"
      ],
      [
        "ĠW",
        "hen"
      ],
      [
        "N",
        "o"
      ],
      [
        "Ġof",
        "f"
      ],
      [
        "Ġmag",
        "ic"
      ],
      [
        "i",
        "z"
      ],
      [
        "oug",
        "h"
      ],
      [
        "ag",
        "e"
      ],
      [
        "um",
        "my"
      ],
      [
        "Ġ",
        "K"
      ],
      [
        "Ġjump",
        "ed"
      ],
      [
        "Ġsh",
        "ould"
      ],
      [
        "Ġfam",
        "ily"
      ],
      [
        "Ġp",
        "ar"
      ],
      [
        "oo",
        "l"
      ],
      [
        "Ġk",
        "id"
      ],
      [
        "Ġsm",
        "ile"
      ],
      [
        "he",
        "s"
      ],
      [
        "u",
        "ff"
      ],
      [
        "Ġpl",
        "ace"
      ],
      [
        "k",
        "ay"
      ],
      [
        "Ġwal",
        "k"
      ],
      [
        "Ġn",
        "ow"
      ],
      [
        "c",
        "t"
      ],
      [
        "ĠI",
        "n"
      ],
      [
        "Ġgre",
        "at"
      ],
      [
        "e",
        "m"
      ],
      [
        "Ġ",
        "qu"
      ],
      [
        "le",
        "s"
      ],
      [
        "Ġstr",
        "ong"
      ],
      [
        "Ġst",
        "ay"
      ],
      [
        "Ġu",
        "nt"
      ],
      [
        "Ġst",
        "o"
      ],
      [
        "a",
        "ut"
      ],
      [
        "Ġfore",
        "st"
      ],
      [
        "t",
        "ure"
      ],
      [
        "an",
        "e"
      ],
      [
        "Ġb",
        "ra"
      ],
      [
        "itt",
        "y"
      ],
      [
        "Ġ",
        "P"
      ],
      [
        "Ġfr",
        "og"
      ],
      [
        "Ġbr",
        "o"
      ],
      [
        "Ġunt",
        "il"
      ],
      [
        "o",
        "on"
      ],
      [
        "Ġbe",
        "aut"
      ],
      [
        "d",
        "y"
      ],
      [
        "Ġs",
        "qu"
      ],
      [
        "Ġst",
        "ick"
      ],
      [
        "Ġn",
        "ext"
      ],
      [
        "Ġbo",
        "at"
      ],
      [
        "le",
        "ase"
      ],
      [
        "n",
        "ing"
      ],
      [
        "Ġhapp",
        "ily"
      ],
      [
        "Ġlist",
        "en"
      ],
      [
        "a",
        "king"
      ],
      [
        "Ġkid",
        "s"
      ],
      [
        "Ġt",
        "ra"
      ],
      [
        "i",
        "es"
      ],
      [
        "i",
        "ful"
      ],
      [
        "Ġbeaut",
        "iful"
      ],
      [
        "Ġa",
        "pp"
      ],
      [
        "t",
        "h"
      ],
      [
        "Ġhelp",
        "ed"
      ],
      [
        "Ġd",
        "ra"
      ],
      [
        "Ġshow",
        "ed"
      ],
      [
        "Ġclo",
        "s"
      ],
      [
        "b",
        "e"
      ],
      [
        "Ġim",
        "p"
      ],
      [
        "Ġstor",
        "y"
      ],
      [
        "un",
        "ny"
      ],
      [
        "o",
        "y"
      ],
      [
        "Ġwh",
        "ile"
      ],
      [
        "Ġtow",
        "n"
      ],
      [
        "re",
        "l"
      ],
      [
        "p",
        "t"
      ],
      [
        "Ġr",
        "ain"
      ],
      [
        "re",
        "ss"
      ],
      [
        "Ġpic",
        "ture"
      ],
      [
        "Ġbe",
        "ing"
      ],
      [
        "Ġre",
        "m"
      ],
      [
        "Ġevery",
        "one"
      ],
      [
        "I",
        "t"
      ],
      [
        "ar",
        "y"
      ],
      [
        "re",
        "e"
      ],
      [
        "Ġm",
        "or"
      ],
      [
        "Ġha",
        "t"
      ],
      [
        "Ġcall",
        "ed"
      ],
      [
        "Ġm",
        "et"
      ],
      [
        "Ġsto",
        "pped"
      ],
      [
        "Ġa",
        "d"
      ],
      [
        "Ġg",
        "ame"
      ],
      [
        "N",
        "ow"
      ],
      [
        "H",
        "e"
      ],
      [
        "Ġw",
        "o"
      ],
      [
        "C",
        "an"
      ],
      [
        "Ġan",
        "gry"
      ],
      [
        "g",
        "er"
      ],
      [
        "uff",
        "y"
      ],
      [
        "Ġs",
        "oft"
      ],
      [
        "Ġop",
        "en"
      ],
      [
        "Ġtr",
        "uck"
      ],
      [
        "Ġke",
        "ep"
      ],
      [
        "W",
        "hen"
      ],
      [
        "Ġc",
        "ry"
      ],
      [
        "Ġy",
        "ummy"
      ],
      [
        "Ġlo",
        "st"
      ],
      [
        "Ġb",
        "ed"
      ],
      [
        "ĠL",
        "et"
      ],
      [
        "ĠS",
        "ally"
      ],
      [
        "Ġwa",
        "rm"
      ],
      [
        "b",
        "y"
      ],
      [
        "v",
        "ent"
      ],
      [
        "Ġbra",
        "ve"
      ],
      [
        "Ġm",
        "ouse"
      ],
      [
        "ĠW",
        "h"
      ],
      [
        "Ġat",
        "e"
      ],
      [
        "ĠK",
        "itty"
      ],
      [
        "is",
        "hed"
      ],
      [
        "Ġd",
        "e"
      ],
      [
        "f",
        "ore"
      ],
      [
        "Ġdo",
        "ll"
      ],
      [
        "s",
        "o"
      ],
      [
        "Ġcould",
        "n"
      ],
      [
        "Ġwat",
        "ch"
      ],
      [
        "Ġle",
        "ave"
      ],
      [
        "Ġal",
        "so"
      ],
      [
        "dd",
        "ed"
      ],
      [
        "Ġf",
        "ell"
      ],
      [
        "Ġgre",
        "en"
      ],
      [
        "Ġfa",
        "ce"
      ],
      [
        "Ġtw",
        "o"
      ],
      [
        "g",
        "an"
      ],
      [
        "is",
        "s"
      ],
      [
        "Ġflow",
        "ers"
      ],
      [
        "b",
        "it"
      ],
      [
        "Wh",
        "at"
      ],
      [
        "Ġ",
        "R"
      ],
      [
        "b",
        "le"
      ],
      [
        "Ġno",
        "ise"
      ],
      [
        "ab",
        "bit"
      ],
      [
        "ir",
        "st"
      ],
      [
        "ow",
        "l"
      ],
      [
        "Ġw",
        "here"
      ],
      [
        "a",
        "z"
      ],
      [
        "o",
        "ck"
      ],
      [
        "Ġso",
        "on"
      ],
      [
        "se",
        "lf"
      ],
      [
        "Ġsl",
        "ide"
      ],
      [
        "Ġr",
        "abbit"
      ],
      [
        "Ġho",
        "le"
      ],
      [
        "l",
        "uffy"
      ],
      [
        "Ġbe",
        "fore"
      ],
      [
        "ir",
        "rel"
      ],
      [
        "Ġp",
        "us"
      ],
      [
        "ir",
        "ed"
      ],
      [
        "Ġsa",
        "t"
      ],
      [
        "ill",
        "y"
      ],
      [
        "Ġhe",
        "ar"
      ],
      [
        "Ġu",
        "se"
      ],
      [
        "âĢ",
        "Ŀ"
      ],
      [
        "H",
        "i"
      ]
    ]
  }
}